00000100000000010000000100000010
00000010111111011111110000000001
00000001000001000000000100000000
00000000000000000000000111111011
00000000111101000000010011110000
00000101000000110000000000000010
00000000111111110000001011110100
00000000111010110000000111110101
11110001000000000000001000000010
11101001111100100000000011101101
00000010000000110000010000000001
11111111111111101111111100000000
11110001111101101111110000000001
00000000111101111111011000000000
00000000111110101111100011111010
11110000000000110000000000000101
11110001111100001111101111111000
00000011000000110000001100000011
00000010000001010000000000000001
11110001111011010000000100000100
11111100000000001110110000000000
00000100000001100000000100000010
00000011000000100000001100000011
11110101000000001111011100000010
00000010000000100000001100000001
11110001000000001111100100000000
00000101000000111111110100000100
00000011000000000000010000000000
00000001111100001111011100000100
00000011000000100000000100000001
11101101000000000000001000000001
11100111111110101110101000000000
00000001000000110000001100000010
11101000000000101111010000000000
11111010000000001111110100000000
11111110000000111111110011111101
00000011000001000000000100000001
11111001111011110000001000000001
11110001000000001111001011110001
11100100111101111111010100000000
11110101111111101111110011111110
11101011111100100000001011110101
11101010111011110000000011101101
11110010111100100000000000000000
00000000000000110000001100000101
11111101111111101111111100000001
00000010000000110000000100000001
00000000000000000000000100000100
00000011000001000000001000000000
00000010000001000000001000000100
00000110111110110000000000000011
00000100000000110000000100000001
00000000111111011111110011111000
11111111111100000000000000000000
00000000111101111111101111110010
11111011111110110000000111111010
11100111111100101111001111111010
11101010000000000000000011111011
00000000000000000000000111101110
00000101000000111111111000000011
00000001000001100000001100000000
00000010000000001111010000000000
11110101000000000000001000000001
00000000111101110000000011111000
00000000000000001111001000000000
11111110111111000000001000000000
11101100111011101111010000000001
00000011000000100000010000000010
00000000000000101111000111111001
00000000111011000000001111110111
11101001111100001111001100000100
11110100111100011111010011101111
11111110000000011111010100000010
00000001000000100000000100000001
00000000111111001111011000000001
11111001000010011111011111111001
11101001000000000000000011111010
00000100000000010000000100000000
00000101111111011111100100000110
00000011000000011111100100000011
11111111000000010000000111101110
00000010000000000000010000000010
00000000111011010000000011110110
11111011111100001111111100000001
00000001111110001111111011111100
11101001000000000000000011111100
11101011000000000000000000000000
00000000000001011111000000000001
11101111000000010000001000000001
11101010000000001111111100000001
00000010000000010000001000000011
00000011000000100000001100000000
00000001111111111111101111111011
11110111111110110000000011110100
00000000000000000000000111110101
11101010000000101111111100000001
00000110000000010000001000000000
00000000111101010000000011111000
00000000000000001111000000000010
11101100000000011111010000000010
11110111111111110000000100000000
00000011000000010000001000000001
00000100000000100000000011110101
11101111000000111111100100000001
11111111000000110000001000000010
11111001000000100000000011101111
00000011000000110000010000000010
11110100111110001111101011111010
00000001000000100000001000000001
00000010000001000000000000000011
11111111111110010000000000000001
00000001000000100000001011101111
00000000000001000000000000000001
11101011111110011111101100000000
00000010000000010000001000000011
11111110111110110000000111111010
11110101000000010000000011110111
00000011000000110000001000000011
11110010000000010000000100000000
11111110111011101111100111111000
00000000000000001110111100000111
00000011000000000000001011110101
00000001111100000000000111111101
11110011000000010000001100000010
00000000111011110000010111101111
00000000000000100000010000000001
00000011000001000000000100000001
11111110111010101111101000000000
00000010000000000000001000000011
11111000000000111111110100000001
00000000000000000000000111101110
11110111000000101111111100000000
11111010000000100000000100000011
00000011000000010000001000000011
00000010111110011111011000000010
00000010000001111111001000000001
00000001111010111111111111110001
00000001111110011111100000000101
11110000111101000000001000000001
11101100111110111111011111110110
11101101000000000000000011110101
11101101000000011111001111111110
00000100000010001111011100000010
00000000000000001111000100000000
00000010111110011111001000000010
00000001111111010000000011111101
11110110111011100000000011110100
00000010000000111111010000000010
00000010111110110000001011101110
00000000111101110000001000000010
00000011000001110000001100000110
00000001000000010000001100000011
00000000111011111110100011110010
11110001111110110000000111101011
11110000111010110000000011110010
00000000111111100000000000000001
00000100000000000000011000000100
11111100111111110000001111111111
11101011000000001111000100000001
00000001000000011111000111110011
11110000111101111111010111101110
11110111111111110000000011111111
11110101000000000000000011110101
00000010000000010000001100000011
00000001111001100000001011110011
00000011111101000000001011110010
11111011000000010000000011111101
11110100111110000000000011111100
11110110000000001111101000000001
00000001111111101111001100000011
00000011111110011111110111110111
11101011111111000000001000000001
00000000000000000000001011110110
11101100111111110000000111110110
00000000000000000000001011101110
00000001000000111111101100000000
00000101000000000000001000000001
11110000111101100000001011111001
00000001000000011111001100000000
00000011000000010000001100000001
00000001000000011110101100000010
11111110000001011111000111111111
00000010111111100000000111110011
00000010111110111111011011111010
00000010000000110000001100000010
11111001111011100000001100000000
00000000111011011111111111101100
00000010000000010000000111110011
11110000111111000000000111110100
00000001111110101111110111111100
11110101111101000000000011111100
11111111000000000000000111110110
11110111111111011111011100000001
00000001000001001111101100000001
00000001000001000000000000000010
00000000000000111111100111111000
00000001000000001111010111111011
00000000111100111110111100000010
11111100000000001111101000000001
11111110111111010000001000000000
11110110111110001111010011110101
11110111111111000000000011110111
00000000111011100000000111110011
00000011000000101111101000000010
11111111111011000000000111110100
00000101000000010000000100000010
00000010000000011111000000000000
00000100000000111110111100000101
00000011000000010000000100000001
11111100111100001111001011110010
00000000000000011111100100000000
11110000000000011111010000000001
11101011111111110000001000000011
00000000000000010000010111110110
00000000000000000000001011111111
00000100000000110000001000000010
00001001111101100000000100001011
00000011000000110000001100000011
00000110000000001111101011111100
11111101111101001111100100000000
00000010111001111111010011110110
00000010000000110000010000000100
11101000111100001111011000000000
00000001111101011111000011101100
00000100000001000000000100000011
00000000111110001111011000000000
11111111000000001111111111111001
00000100000000100000001000000001
00000001000001101111010000000001
00000010000000011111011100000010
00000011000001000000001100000011
11110100111011101111100100000000
11110000111100010000000011111000
11110011111100000000000111111010
00000010000000110000001100000100
11111111111110011111101000000000
00000010000000010000001100000000
00000001111010100000000011101111
00000011000000100000000000000101
00000010000000100000001000000010
11111111111011100000001011111110
11111111000000001111001100000001
11110100000000010000000011111001
11110111111110111111101111111110
00000000111111110000000011100110
00000000000000011111010000000000
00000011000000110000000100000100
00000000000000001111011000000011
00000010000000010000001000000010
00000110000000101111010100000001
00000001000000001111101111111001
00000001000000001110110000000000
00000011000000100000001100000010
00000001000000101110111000000010
00000001000000100000001000000010
00000000111110111111011111111000
00000001111110011110101100000000
11110000000000000000000011101111
00000000111111010000000111111111
11110111111100100000001011110111
11110000111100111111001000000010
11110000111110011111000111111011
00000001000000010000001100000000
11101100111011001111110000000000
11110000000000101111111011110111
11111101111100111111111111111001
11111001111100110000000011111000
00000001000000010000001011101111
11110000000000001111111000000000
00000010000000010000001011101110
00000011111111110000001011111110
00000000000000000000001011111001
00000010000000000000001011111010
11110000000000111111010011110001
11111011000000011111001000000000
00000011111101100000001011110010
11110101000000010000000111110100
00000010000000100000001100000010
00000010000000010000010100000010
00000000111111110000001011101111
00000101000000000000010111111001
00000011000001010000001100000001
00000010000000110000000011110000
00000001000000010000001111111101
00000010000000100000000111110100
00000010000000101111101011110011
11101100111101110000000111110110
00000011000000110000000000000001
00000000000000010000000000000010
00000010111010010000000111110111
00000000111110001111111111111001
11110001111111001111000111110100
11111111111111100000000000001000
11100001111110011111001100000001
11110101111101100000000000000001
00000010000001000000001100000011
11111101111101000000000111110011
00000001000000000000001011101011
00000000000001001111000000000010
00000100000000010000010000000001
00000010000000010000000100000010
00000000000000000000001011110010
11101111000000000000010100000010
00000000000000101111011000000011
00000100000000010000000000000001
00000010000001101111001100000110
00000001000001010000000100000101
00000010000000110000010011111011
00000010111101100000001011111010
11111111000000110000000100000011
00000010000000100000001100000010
00000100000000100000000011111011
11101111000000000000000000000001
00000001000001010000001000000010
00000011000000010000001000000011
00000001000001000000001000000010
11111111000000001111000011101010
00000000000000110000000000000000
00000100000000100000001100000000
00000110111111001111101000000000
11111100111100010000000111110111
00000101000001000000001000000100
11110000111100101111100011110010
11111011111111011111001000000001
00000100000000000000000100000011
00000000000000010000001100000010
00000010000000111111001100000000
11111000000000000000000011110011
00000000000000011111000000000000
00000011000000100000001000000011
11111100111111001111011111111100
00000010000001010000001000000100
11101011111001110000000100000011
11111100111110011111111111110000
00000010000000110000001000000001
11110001000000010000001100000101
11110101000001010000000100000011
11110001000000000000000111110101
11101110111011111111010000000000
11110010111110010000000011110011
00000010000000100000000000000100
00000000000000101111010100000000
00000001000000010000001100000000
00000010000001010000000100000010
00000010000000110000001000000001
11111111000000000000000000000010
00000001000000001111110011111110
11110100111011000000000111110111
11111101111100001111111100000001
00000001000000000000000111101111
11101111000000000000000100000011
00000000111110100000001000000000
11111010111111101111011111110101
11110111111110011111101000000000
00000000000001011111111100000100
00000000111011011111011111111011
00000000000000000000001011101110
00000010000000010000001100000001
00000100111111110000001000000010
11111100111100110000000000000000
00000110000000100000000000000000
11101100111100100000001011110001
00000001000000000000001100000010
00000011000000110000000000000100
11111111000000010000000011110010
11110000111101100000000000000001
11110101000001001111111100000001
00000010000000100000001000000001
00000010000000110000000100000011
00000101111101000000000111111000
11110001111111110000000011110111
11111011111011101111110100000000
00000000111111110000010000000011
00000100000000100000000111110111
11110001111101110000001100000010
11110010000000000000001011111011
00000100000000100000001100000001
00000010111111001111110100000000
00000010000000011110110111110111
00000001000000010000001011111001
00000010111101110000000111110101
11111111111111100000010000000010
00000001111111101111100000000000
00000011111101010000010000000101
00000000000000100000000011111000
00000100000000010000010000000101
00000010000000110000010000000100
11101011000000000000000011110100
00000101000001000000001000000011
11101110000000011111111000000000
00000100000000010000001100000001
00000100000001100000001000000101
11111111000000000000000011110110
00000000000000001110110011111001
11110110111111100000000111111000
00000100000001000000001100000011
11111101111101100000001011111100
11110111111110011111110000000001
00000000000001000000001100000100
00000000000000101110111000000000
11110101111100100000000011111111
00000011111110001111101100000010
00000010000001110000010000000110
11101000111101110000001000000001
00000001111111000000001011110010
00000000111011100000001111110101
00000001000000001110101000000000
00000000000000011111001100000010
00000011000000011111111100000011
11111000111111111111011000000100
00000000000000111111001011110001
11111100000000110000000011110111
00000010000000100000001100000010
00000000000001010000001100000010
00000000111100011111111000000001
00000001000000000000001000000000
11111111111001011111110100000000
00000011000000101111010000000001
11101110000000000000000000000010
11101110111011111111001011110110
11111111000001000000001100000000
00000011000000110000001000000010
00000000000000000000001111100110
11101010000000010000000011111100
00000100000000101111100011110010
00000000000000010000001000000001
00000011000000110000000000000100
11110000111100100000001100000010
11101110111011101111011100000000
00000100000001110000001000000011
00000011000000010000001000000011
11110111111101110000000111111110
00000011000000010000001000000010
00000001000000100000010000000101
00000100111100101110101100001000
11110001000000010000000011110010
00000011000001000000000100000110
00000001000000000000000111101010
00000010111110011110110100000001
11111100000000000000000000000000
11111001111110100000000111111111
00000010000001000000001100000010
00000011000001011111111000000100
00001000000000001111010000000000
00000001111111101111001111111010
00000001111110010000000100000100
11111110111010101111110100000000
11111011000000000000000011110101
00000100000000011110111100000000
00000000111101111111011111111001
00000010000000100000000100000001
11110011000000100000000011110000
11101011111111111111100000000000
11111111111011110000000111111001
11110111000000000000000111111001
00000000111110000000001011101101
11111011000001000000000011111011
00000011000001000000000100000010
11111100111110111111110111111110
00000000111110110000011011110010
00000100000000100000001100000100
11110010000000010000000011111001
00000000111011010000001011111010
00000000000000001111111100000001
11110100111100101111011100000011
00000000111110001111111111111110
11111101111101100000000000000001
11111000000010001111111000000010
00000000000000011111110100000001
00001011111100111111111011110101
11110101000000000000000100000100
00000010000000000000001000000011
11111000111110110000000011111101
00000010000000000000001111101011
11101001111100101111101000000000
00000010000000100000001100000101
11101101000000011111011011110010
00000001111011000000000011111000
00000000111011011110111100000001
00000000000000010000101011110101
00000101111110110000000111111100
00000000000000110000001000000011
11111001000000001111111111111111
00000101000000001111100000000100
00000011000000100000010000000010
11111011111010001111110100000000
00000000111101110000000111110101
00000100000000110000001000000010
11110010000000100000000011111001
00000000111101001111001111110100
00000000000000001111001000000010
00000000111101011111100011111101
00000000111101000000000000000111
00000000000000010000010000000010
00001001000000111111100000000011
11110000000000011111101111111101
00000000111011101110011111111100
11111100111101101111010011110100
11110001000000010000000011111011
00000011000001011111100100000010
11110011111100111111001100000000
00000001111011110000000111111100
00000011000000100000000100000001
00000000000000011111001000000000
00000000111101001111011100000010
00000000000000011110111000000010
00000011000000100000000100000001
11101101000000001110110000000000
00000011000000011111100100000101
11110110111110101111100111110111
00000000111111011111100011110110
00000000000001011111101000000100
00000011000000010000000111110110
00001100111111000000001100000011
00000010111011010000010000000010
00000000111110000000001011110001
00000001111011111110111011111000
11110100000000101111100000000000
00000000000000100000001000000000
00000001111010000000001011110011
11110111111111111111100111110110
00000010000000000000001011111110
11111111111111111111100100000000
11111111111101111111100011110100
00000000000000011111011100000001
00000001000000000000010011101101
00000100000000100000010011110001
00000000000001010000001011111000
11110010111011010000000111110100
00000011000000100000001100000010
11111001111110101111110100000001
00000100000000010000001100000011
11110010000000010000000011111011
00000010000000011111100000000010
00000000111011110000001011110101
00000010000001000000001100000001
11111111111101001111100000000000
00000001111100110000000111110111
11110000000000010000001011111000
11101010000000011111100100000011
00000000111101101111110011110110
11111111111111011111011111111000
00000001111111101111100100000001
00000000000000010000001100000010
11110100000000001111100111110110
11111110000000110000001000000000
00000011000001000000001100000010
11100111000000001111001100000000
11111000111111110000001000000000
11110101111100110000010000000111
11111000000000001111001000000010
00000001111111111111111111111000
11111100000000101111101011111111
00000000111100010000001011110100
11111010000000010000000100000011
00000000000000111111000100000000
00000001000000110000001100000101
11111000111111111111011111111110
00000011000000100000000100000001
00000000111111001111110000000101
00000010000000011111101100000100
00000101000001011111011000000100
00000100000000000000001000000010
11110000111111111111111100000001
11110110111100010000000011111011
00000001000000101111100100000100
00000000000000000000010000000000
00000000111010011111111000000000
00000001000001000000001000000011
11111111111100110000000111110101
00000000000001000000001011110110
11110100000000110000000011111000
11101100000000000000000011111111
11100011111101010000000111101100
11111110000000100000000011111010
00000001111011010000000111111001
00000000111110000000000011110110
00000011000000110000000000000011
00000010111101110000000111110001
11110010000000011111001100000001
00000100000001000000000100000100
11101101111101000000000011110000
11101111111110011110111000000000
00000010000000010000000111111001
11111110111011011111101100000001
00000000000000000000001111110100
11101110000000011111000000000001
00000011111011101111000000000010
00000010111111100000001000000100
11111101111011011111110100000000
11111111000000010000000000000001
00000000000001100000001000000001
11110101111101011111111111111001
00000011000001001111111100000000
00000001000000100000001100000010
00000010000000011111000000000000
00000000111011000000000111101111
00000101000000110000001000000110
11110010111101000000000011110011
00000100000000001111000100000001
11110000000000101111011100000000
00000010000000100000000100000010
11110010000000011111011100000010
00000010111111101111101011110101
00000000000000011111100011110101
00000001000001000000001000000011
11110111111101000000000011111001
11100001111101011111101011111111
00000000111011110000001011110111
00000100000001010000010000000101
11111101111100100000000011111101
11110011000000000000000011101111
11101010111100011111101000000001
00000011000000110000010000000011
11110110000000110000000111110100
00000001000000100000000000000001
00000100000001000000001100000100
11110111000000011111010000000000
00000011000000011111010100000010
00000001000000101110111100000000
11111000111011100000000111101101
00000001111111111111011000000001
11110001000001001111111111110011
00000000111011001111001111111111
00000000000000000000001111110010
00000100000000001111000111111011
11110101111110100000000000000000
00000011000000010000001100000001
00000011000000010000001000000100
11111011000000111111110111111000
00000010000000110000000100000010
11110010000000001111010111111011
11111001000000110000000011110110
00000000000000011110111000000010
00000000111100000000000011111100
00000010111110010000001100000011
00000001000000000000001111111000
00000100111110010000000111111100
00000001000000000000000000000000
00000010000000100000000000000000
00000000000001000000000011111111
00000000111111001111100100000010
11101101000000000000000011110111
11110100111111110000000011111001
00000010000000001111110011111010
00000011000000010000000111111011
00000010000001100000010100000110
00000011000001011111100100000001
00000000000000001111101000000000
00000000000000000000010011101110
00000101000000101111001100000001
00000011111110000000000111111001
11111101111101111111101011111110
11111100000000101111110000000001
00000000111101011111011011110011
00000010111110101111100000000001
00000001000000100000001111101010
00000001000001000000000100000100
00000010000000000000001011111100
00000011000000100000001000000001
00000001000000001110111011111110
11111100000000010000001000000010
00000010000000001111111000000000
00000011000001000000001000000101
11110111111111000000000100000010
11110100000000001111110100000001
00000011000000100000000011111101
00000001111110011111100011111000
11110110111011111111001011111010
00000000111100100000000111111110
11111111000000000000000000000010
11111111111111110000000111110111
00000010111101110000000011111010
11111110111111010000000011110100
00000100000000110000001100000100
00000101000001010000000100000001
00000011000001000000000100000011
11111110000000000000001011110110
00000001111111000000001100000000
11111111111101100000000011111100
00000011000000110000000011111101
00000001000000001110111100000001
00000010000000110000001100000101
00000010000000110000000100000001
00000010000000010000001011100101
11111011111101000000000100000000
00000011111111111111101100000011
00000100000001000000001100000010
00000001111100111110101100000011
11111100000000001111100111110101
00000010000001011111100111111101
00000001111111110000000111111100
11111111111010000000000000000000
00000001000000110000000100000011
11101010111011000000001000000011
00000001000000100000001011111010
00000000111011001111011111111010
11101000111111110000000011110000
11101111000000001111001011111111
00000000000000000000000111101100
00000001111011100000000111110111
11110011111111101110110111111011
11101000111011111111001000000001
11111011000000001111111011111001
00000000000001111111000100000101
00000100111001001111101100000000
00000000000001000000000011110001
11111011111111100000001000000001
00000001000000100000000100000001
11110010111111001111011111110100
00000010000000000000000011110110
00000100000000010000011000000000
11110100111101110000000011110100
00000001111010111110100011110011
11111011111100111111100000000001
11111000111110011111011011110000
11111110111101100000010100000000
11111110000001111111110100000000
11110001000000001111101000000001
11111111111111100000000011111110
11110011111110010000000011110110
11101011000000001111100000000001
11111010111110000000000000000000
11101101111101011111011000000010
11111111111100101111111111111100
00000000111010110000000011110000
00000011000001000000001111111110
00000010000000110000001000000010
00000011000000000000000111111000
00001000111100000000000100000000
11110011000000111111110000000010
00000010000000100000001100000001
11101110000000000000000011111100
00000000111101010000001111110101
11111111000000010000000011110001
11101110000000010000000111110000
00000010111101111111101100000000
00000001000000110000000111111111
11111101000000001111011100000110
00000100000001100000001100000011
00000010000000100000000000000000
00000000111110001111011000001001
00000100000000100000001000000100
11111100111111010000001000000001
11111100111110110000001000000000
00000001000000100000000011111001
00000001000000010000010000000011
11110101000000000000000011110001
11110011000000100000000000000001
00000000000000010000000111101011
11110011111101110000000011101101
11111111000010001111001111110100
00000001111010100000000111110000
00000000111111100000000100000011
00000001000001001111000100000001
00000100000000010000000000000010
00000010000000110000010011111100
11111010000000110000001000000010
00000011000000100000000100000000
00000101000000111111101111111100
00000001111011110000001111110100
00000010000000100000000000000010
00000000000000110000001000000011
00000000111010010000000100000001
11101111111110011111110100000000
00000001111100000000000111101100
00000010000001010000001000000010
00000000111101011111011111110111
00000010000000100000001000000001
00000000000000000000000011101010
00000110000000010000000000000001
00000011000000011110111111101110
11110101000000000000000011111011
00000000111110001111011111110110
00000011000000100000001000000100
00000010000000100000000100000001
00000000000000001111001000000010
00000000000000000000001011110001
00000000111101010000010000001000
00000000111010001111111000000000
11110000000000000000000000000001
00001000111100011111110000000001
11110101000000011111111111111100
11111100111111111111110111111000
00000011000000110000000100000001
11110001111101110000001000000011
11101101111111101111011100000001
00000010000000001110110000000000
00000000000000100000000000000101
00000010111011000000010011101110
11111000111110010000001000000000
11101110000000001111010000000001
00000010000001000000000100000011
11110100000000111111010111110110
11111111000000001111000000000000
11100101111101001111011000000000
11110110000000101111111100000010
11110101111111111111010000000000
00000011000000100000001000000001
11110110111100001111110100000000
00000100000000000000001011100101
11110101111011110000000111111010
00000011000000110000001000000010
00000010111111001111110100000010
00000000111010110000000011111011
00000000000000011111011000000001
11110011000000000000000000000001
00000001000001000000000100000001
00000100111101110000000111111100
11110110000000010000001100000010
11110101000000001111110000000000
00000010000000100000001100000011
00000010000000010000001100000001
11110101000000010000011000000000
11110001111100010000000011100111
11101010000000000000000111111010
00000101000000010000001100000010
11110011111100110000000011111000
11111101000000000000001100000000
11101010111100000000001000000000
11111110111011100000000111111100
00000000000000001111001000000001
11101101111101001110111100000010
00000001111101110000000100000001
00000110000001000000000000000000
00000100000000000000000000000000
00000000111111101111011111111001
11110110111110000000001011111110
00000000000000110000001100000011
11111111111111111111101100000010
11110000111101100000001011111001
11111001111110011111111111110101
11101000111011101111011111111111
00000001000000100000001000000101
00000001111010101111001011110110
00000011000000100000001000000000
11110101000000001111101100000000
00000100000000110000010000000010
00000000111110101111011111111011
11101011000000010000000111111001
00000001111010000000001011110101
00000000000000000000000111101100
00000010000000001110111011111111
00000000111110001111110111110110
00000101000000110000000000000010
11110011000001001111001100000000
00000101000001110000001100000001
00000010111011100000000011111101
00000010000000010000001100000011
00000101000001001111101100000001
00000010000000011111110100000000
00000100000001100000000100000011
11110011000000011111110111110001
11110101000000011111100011111101
00000000000000111110111000000001
00000010111111011111011000000001
11110100111110000000000111111100
00000000000000100000000000000010
00000001000001110000001000000100
11101001000000100000001000000001
11110011111101011111011000000010
11111001111110001111111111101111
11110101000000000000000111110110
00000101000001000000000100000001
00000011000000000000010000000000
00000011000000010000010000000010
11111100111101100000000011110100
11111010111010111111100100000000
00000100000001000000001000000010
00000000000001010000001100000111
00000111000000000000010100000111
00000001111011000000001100000010
00000011000000100000001100000001
00000000000001000000000100000101
11111011111110011111101111111000
00000000000000001111110111111100
00000010000000101111111111110001
00000100000000000000001100000011
11110001111101001111011000000000
11101010111010100000000011110100
00000001000001000000000000000001
11111000111100011111011000000000
00000001111010111110110111111111
00000001000000001111111000000011
00000001111101111111110000000101
11110111111101110000000111110011
00000011000000100000001000000011
11111000000000000000000111111001
00000000000000011111010011111111
00000011111111010000001000000100
00000101000000011111001100000011
11110010111101110000000100000100
00000001111101011111101000000100
11101011111110011111001111110111
00000010000000010000001100000011
00000011000000100000000100000011
00000010111011010000000011110110
11111101000000010000001000000011
00000000000000101111110011111110
00000100111110001111010000000000
11110011000000101111101011111011
00000001000000000000000011110100
00000001000000000000001011101110
00000000111100101111100011110111
11101101111101111111001100000011
11101100000000000000000000000001
11110000111110000000001000000000
00000011000000010000000111110000
00000011000000110000001100000000
00000000000000000000001111101111
00000101000000100000000000000101
11111011000000001111010111110111
11110100000000001111110100000001
00000010000000010000000000000001
00000000111111110000010011110010
00000000111111010000000000000011
00000000111011000000000111111010
00000001111111101111000100000001
00000000000000000000000011101100
00000001000000110000001100000000
00000001000000100000010100000001
00000100111110010000001011111110
00000000111011110000001111110000
00000010111101110000001011111111
00000101000001000000001100000011
00000001000000100000001111101111
11111001111110111111100011110100
11101101111111101111110100000001
00000011000000101111010000000101
11110010111111111111111000000001
11111000000001100000000100000011
11110101000000000000000111111100
11101110111011111111001000000011
00000101000000100000001000000001
00000001111111001111010111110010
00000010000000110000000100000010
00000010000000110000001000000011
00000001111101010000001011101111
00000000000000100000010000000100
11101111111110111111101011110111
11101000111110111111011100000000
11110000000000000000000000000000
00000001000000010000000100000100
11100110111101011111101100000001
00000000111100100000000111110011
00000011000000010000000111101001
00000000000000010000001011101111
00000000000000010000001011101111
11110000000000010000000111110011
00000000000000010000011011110110
11110111111011111111111000000000
11111111000000101111101111111110
11111111111110111111001111110100
00000100000001010000001000000011
11111011111111111111101100000000
00000000000000110000000100000010
00000010000001000000001100000100
11111111000000000000000011101100
00000010111111000000100011111011
00000100000001000000001000000010
11110010111110000000000011110000
00000000111101110000001011101110
00000011000000001111110000000010
11110110111100100000000111111010
11111101111010001111101100000010
00000000111101010000001000000000
00000001111110001111111111111101
00000000111101110000000011111101
11111001111101000000011000000010
11101101111101100000000011110001
11110011111111011111101100000000
11111111000000011111011100000000
00000010111011110000001011111100
11110010111100000000000111111001
11110001000000101111101111111100
11110011111101110000000111110111
11110111111111111111110000000000
11110000000000001111001100000000
11111111000000011111010100000000
00000001000000010000000011111000
11111110000000100000001000000010
00000001000001000000000000000011
00000011000000100000001100000010
11110110000000001110110100000000
11111010000000101111100011111100
11101011111101011111111100000000
00000011000000100000000100000011
11111011000000001111101111111010
00000000000000000000001100000010
00000001000001100000000000000011
11111110111100111111111000000000
11110100000000011111001111110110
11110010111110110000000111110100
00000000111011101110110100000000
00000110000000100000000000000100
11101100111111001111011000000010
11111101000000000000000111111110
11110110000000001111111000000000
00000010000000100000000000000010
00000101000001010000001100000110
00000101000000100000001000000010
11111100111100110000001100000110
00000100000001000000010000000001
00000001000000000000000000000010
00000000000000001110110000000000
00000010111100110000001111110110
00000011000000100000000100000110
00000010111101110000000111111010
00000100111111000000001011110101
00000101000000100000000000000010
11110000000000000000000000000010
11111000111111000000000011111001
11110111000000001111101111111010
00000001111101100000000111111001
11110001000000011111011000000000
11110100000000000000001011111000
00000011000000000000000011111001
11111111111011011111010011111001
11101110000000100000000000000001
00000000111010110000000011111011
11110111000000111111000111111000
11111011111011011111110100000000
00000010000000100000001100000010
00000010000000100000001100000010
00000001000001010000001111111100
00000011111110110000010011111011
00000011000000000000010000000000
00000000111111111111111111110110
00000001111011100000000000000011
00000101000000110000010000000100
00000000111110110000000111111000
00000010111101100000000011110011
11110100000000011111001000000001
11111000000000000000000011110011
00000100000000010000010100000100
00000001111111111111111000000000
00000011000000100000000000000010
00000000111100010000000011111010
00000011000000001111110111110101
00000010000000010000011111111111
00000000111101101110110100000000
00000010000000110000001000000001
11111010111100000000010000000000
00000001000000111110111100000000
00000000111111111111001011111010
00000110000000100000001100000000
00000010000000110000000000000011
00000001000000000000010000000000
00000111000000010000010000000001
11101111000000001110110100000101
00000000000000010000000100000011
00000011000000010000001000000001
00000101000000010000000111110100
00000011000000100000010000000010
11111111000000011111001100000011
11110010000000000000001011101011
00000011000000010000010100000011
00000000000000001111000100000010
00000001000000001111110111111110
00000010000000010000000011100100
00000001000000110000010100000011
00000001111100111111101000000001
11110111000000001111100111101110
00000011111101100000000000000001
11101010111100101111011000000000
11111101111111111111001111111110
11111011000000000000000000000010
11110111000000001111001100000000
00000100000000010000001100000011
00000010000000100000001000000000
00000000000000100000001100000100
00000001111111110000000111111110
00000011000000010000001100000010
00000100000000100000010000000010
11111110000000110000000111111011
00000011000000100000010000000001
11111011000000001111110000000001
11111001111111111110110111110111
11110011111011000000000011111000
11111100111101101110100100000000
00000000000000010000000011111100
11111101000000000000000111111100
00000000111011111110011111110000
00000000000001110000000111100111
00000011000000010000010000000001
11101010000000000000000011110010
00000000111111011111111011111010
11111111111110101111000111101100
00000010111101100000001011111010
11111110111111010000000100000000
11110011000000010000000011110000
00000001000000110000000100000010
11111000111101110000000000000010
11111001111101110000000011111110
11110111000000010000000011101111
00000000111011101110111100000000
00000000111100100000000111110010
00000100000001000000001100000010
00000000111101001111111011110110
11101011111100100000000100000000
11111101000000011111110100000000
00000100000000000000011000000011
11111010111111110000000000000000
11101011000000011111010100000110
00000000111101011111001111111001
00000010111111010000010000000001
00000000111110001110110000000000
00000001111111111111000000000100
11111001000000100000000011111111
00000010111101111111000111111110
00000010111101111111110111111000
00000000111101010000001011101011
11110010000000111111010000000011
11110100111101101111010111111110
00000001000001000000001100000100
00000001000000100000001000000100
11111100111101100000000011111101
11101101000000001111000100000011
00000101111100001110101100000000
00000000000000011111010000000001
00000000111101001111000111111000
00000000111111101110100000000001
00000010111101011111100011100101
11110011000000000000001011110110
11111001000000100000000111111100
00000010000000100000010000000011
00000000000000010000000100000010
00000100111110010000000000000001
00000001111101101111101100000010
11110110000000010000000111101111
00000010000000100000001100000100
00000001111111001111110100000000
00000101111100100000010100000010
00000011000001000000001000000010
00000010000000011111010100000100
00000001111011010000000011111001
00000010000001011111010000000001
00000000111111100000010000000000
00000100000001010000000100000010
00000000111111001111011111110001
11110101000000001111110011110011
00000001000000100000000100000100
00000010000000010000001011111011
11111111000000001111011000000001
00000101000000100000001000000000
00000001111111001111111011111000
00000000111110011111111100000010
00000011000000010000000100000010
11110011111101000000000111111010
11111011000000010000001011111011
00000100000000110000000100000001
11110100000000001110011011110101
00000010000000000000010011111001
00000001000000100000000100000011
11111111111100101110011111111011
00000000000000100000000100000000
00000011000000010000001100000011
00000011000000110000010100000000
11110000111100111111001100000000
00000001111100010000000100000000
11111000000000000000001000000001
11110110000000010000001011101011
00000010000000010000000000000001
00000000111110000000000000000011
11110100000000001111110111110010
11110000000000011111110111111000
00000001000001101111111100000001
11110110111100011110011000000000
00000000111011110000000011100101
11110101000000011111111100000001
11100111000000000000001000000001
11110111000000000000001111110111
00000001000000000000000000000011
11111101000000010000000000000101
00000101000001110000010100000000
00000000000000010000001111101101
11101001111101000000000000000000
11101000111110010000000000000010
11101010000000010000000000000010
00000010000000001111101000000000
00000001000000010000001000000011
11111000000000000000001111111100
11101110000000001111000100000010
00000000111001011111111000000000
00000000111110011110110000000000
00000000111110011111110011111010
11110110000000001111111111110101
00000011000000110000001000000011
11101011111101000000000011111010
00000000111110110000001000000001
11110100000000010000011000000000
11110000111100001111101000000001
00000010000001010000001100000010
11111111111101000000001011100001
11111100111111111111101000000000
00000011111100001110111100000010
00000000111011111111001100000011
11110101000000000000000011111111
00000001111100110000001011110100
00000000111110110000001111101101
00000010000001010000001100000010
00000011111110101111000100000000
11111100111101011110110011110111
00000011000001010000010000000010
00000001000000011111000011110101
11101110111100111111011100000000
00000010111100000000000011110011
00000011111111010000001000000100
00000101000000100000001000000011
00000000000000011111110000000001
11100111111100100000000000000001
11111000000000000000000000000011
00000010000000010000000111111010
00000001111111100000000111111110
00000001111110111111100100000010
00000010111011101110000000000010
00000000111101000000010000000011
11111010111110110000001011111111
11110000000000100000010100000000
00000011111101001111000000000000
00000000111111111111011100000001
11101011111110010000000011111010
11101110111100000000001011110100
11111010000000000000001000000010
11111111111110001111001000000000
11110111000000011110111100000000
00000000111101111110101100000000
00000000111111110000000111110010
00000000111111011111100011101000
00000010000000010000001100000000
11101011000000101111010011111010
00000001000000010000001000000000
11110000000000100000000111110110
00000101000000000000001100000010
00000010111100010000000000000100
11110010000000100000000111110000
00000010000000000000000011111000
11111101000000110000001111111101
11101011111011111111100111111111
00000011000000110000001100000010
00000011000000011111101100000110
00000100000000100000010000000011
11110111111100010000000000000000
11111101000000000000000011111010
00000010111110000000000100000000
00000000000001000000001100000001
11110000000000110000000100000001
00000000111100000000000011110011
00000011000000010000001000000001
00000000111101110000000011100111
11110010000000001111111000000011
00000100000000010000010100000100
11100101000000000000001000000001
00000000000000010000000011110000
00000111000000100000001100000000
11110001000000010000000011111100
00000000111101011111010111111111
00000001000001000000000100000010
00000010000001000000001000000010
11111001000000001110101011111001
00000010000000000000010011111010
00000001111101100000000011110011
00000011000001010000001000000100
00000001000000010000001000000000
00000001111110001110111000000001
11110101000000100000010011101001
00000001111110001111111111111010
00000000000000011111111111111010
11110101000000000000000011110000
00000001111101111111000111111111
00000101000000110000011000000010
11101001000000110000001111110011
00000011000001000000010100000000
00000010000000111111011100000011
11111111111100011110111100000010
11111110111010101110010100000001
00000011000001010000000100000010
00000011111100101111001000000010
00000000111101010000000011110100
00000000000000001111110011101111
00000000111100000000000111101100
11101110000000001111101111110011
00000000111111111111011000000000
00000000111110101111010011101110
11100111000001010000000000000000
00000001000001101110110100000001
00000100111111100000001000000111
11111111000000000000000111111110
11111101000000001111010000000000
11111000111111011111010111111011
00000000111111101111110011110111
00000000111011101110111011110001
11101111111101001111011111111111
00000010000000000000001000000011
00000100000000000000000000000010
00000000111110011111111111111001
11110101111100010000000111110111
11111111111100111111111000000000
11111000000000001111001111110100
11111101000000100000001100000010
11101111000000001111101000000001
00000100000000110000010000000010
00000101000000100000001100000010
00000001111011111111000111111000
00000011111110110000001000000001
00000101000001110000000000001001
00000000111111111111001100000001
00000001111111101111101011111101
11111011111110010000001011111000
11110011000000100000000111110001
00000000111110011111001000000001
00000010000000110000010000000101
00000010111110101110010100000000
11110010111100100000000111110111
00000011000000011111110111111100
11101011000000001111111111111111
11101111000001111111100100000000
00000001000000001111111111111101
00000000000000000000000011110101
00000011000000100000001100000011
11110110000000001111110111110100
11110110000000000000000111110010
11111111111101100000001111110111
00000011000000110000010000000001
00000000000000110000000100000000
11111111000000000000000011111011
11111010000000100000000111111011
00000000111111011111010011111110
00000101000000100000011000000010
00000001000000100000001011111001
00000000000000110000010100000001
00000100111011100000000011111111
00000000000000010000000000000010
00000100111011010000000100000011
11110011000000010000000011110011
00000101000000010000001111111111
11101111000000001110110011110100
00000010000000010000000100000010
00000100000000100000000100000010
00000011000001000000000100000010
00000001111001101110010011111010
00000001000001000000010011110000
11111010000000000000010000000100
11111000000000011111000011110111
00000000111110111111101011111001
00000000000000100000010000000010
00000001111101111110111000000000
11110010000000001110111111110010
00000000000001011111001011110101
11110001000000110000000011110000
00000001111101010000001111101100
11111010000000001111010111111001
11101010000000010000011100000011
00000001000000100000001100000100
11110001000000001111101100000001
00000100000000100000000100000010
00000100000000010000010000000000
11111010000000001111000100000001
00000100000000100000010000000110
00000100000000001111001111111101
00000001000000111111101100000010
11111001000000000000000011111110
11111001111101001110111111111011
00000000111101111110111100000000
00000001000000111111111000000100
11110010111110001110100011110101
00000000000000010000010000000000
00000010000000000000001100000100
11110001000001000000000100000001
00000011000000101110100100000100
11111100111111010000001000000000
00000001111101111111010100000001
00000010000000001111000100000001
11111011000000000000001011110011
11110111000000111111101100000011
11111000111111110000001011111101
11100111000000001111111100000000
00000000111111111111101011111100
00000100000000100000000000000000
11111000111100100000000011111011
00000001111100000000000011101100
00000010000000110000001100000010
00000100000000010000001000000001
00000001111100101111001100000000
00000101000000111111110100000011
11110011000000000000000000000001
00000010000000000000011000000101
00000011000000110000010100000000
00000001111101101111111111111000
00000010111111011111111000000001
00000000000000011111101000000000
00000011000000110000010100000100
00000010000000100000001100000001
00000001111110110000000011111001
11110010000000001111011100000011
11111011111111111110101000000000
11101011000001010000000111110000
11110101000000000000000100000001
00000000111110001111110000000100
11111001000000100000001100000000
00000100000000100000011000000001
11111111000000001111100000000000
11100111000000110000001000000010
00000011111101100000001000000000
00000100000000010000000000000011
00000001111101111111110100000001
11110111111100101111111111111110
00000010111110010000001111111111
00001000111110101110101000000010
00000101000000110000000000000011
00000010000000110000010000000101
11110110000000011110110100000000
00000010000000100000000011111110
00000010111101100000000011111111
00000010000000100000010100000010
00000011000001100000010000000100
11111100111111011111101111110110
00000000111100011111011011110001
11110010000000000000000011110011
00000001000000100000001100000000
00000001000000000000000100000000
00000000111101011111001111111010
00000010000001100000000000000011
11100111000000010000000111101010
11110000111110010000000111110101
11111000000000100000000011111011
11111101111101111111101000000000
11111101000000111111111111110011
11110000111011110000000011111001
11110110111011101111111111111011
11101011000000000000000011101111
00000000111111001110111011111000
00000011111111011111110111111111
11100110111101000000000000000000
11101011000000110000000100000010
00000100000000101111110000000011
00000100000000100000001000000000
00000010111111100000000100000100
00000001000000001111100011111111
11110000000001010000000111111010
11111101111111101110101000000000
11101110000000010000001000000011
00000001111110000000011000000000
11101001000000010000000100000001
11111100000000000000001100000000
00000101000000110000010000000010
00000001000000010000000011110010
00000000000000011111100000000001
11101100000000100000000100000000
00000010000000100000011000000011
00000010000000111111111100000011
00000000000000100000000000000010
11111110111010010000000000000001
11111110000001100000000111100111
00000100000000110000010000000010
11110100111100101111110100000000
00000011000000110000001000000100
00000010000000000000001100000000
11101000111110110000000111110110
11110101000000001111100111111100
00000010000001010000010000000000
00000000111010101110010000000001
11110001000000100000000011101100
00000000111110000000010011111010
11111101111111011111111000000000
00000100000001000000001100000010
00000011000000000000001111111110
11110100000000011111011011110101
00000000111111011111111111110111
00000010111110111111100100000000
11111110000000001110100011111110
11110011000000001111001111111111
00000001111110110000001111101110
00000000111111100000000011101011
00000011000000010000000100000011
11110010000000101111000011101110
11111010111101000000000100000000
11110100111110110000000011111001
00000000111110001111111111111010
00000010111011000000000100000001
11101101000000001111010000000000
00000011000000000000010100000010
11111001000010011111111000000001
11110110000000000000000111111010
00000001000000010000001000000010
00000000111111101111101111111010
00000001111100111110010100000010
00000010000000001111111100000000
00000000000000000000001000000001
11111000000000001111100100000011
00000001111101001111011111111010
00000001000000010000001000000001
00000010111111110000000111101110
11110100000000010000000011111110
00000001000000100000000111110010
00000100111110010000000011111011
11101101000000011111010000000000
00000010111010100000000000000000
11111111000001000000000000000000
00000011000000100000001100000010
11111000000000001111110011111101
00000000111110100000000011110111
11111010111101010000000011110001
11111001000000000000000011110111
00000001111100101111010100000011
00000010000000110000000100000010
11111001000000101111100011111011
00000101000000000000001100000010
00000011000001010000001100000000
11111001000000001110110111110010
00000000111110011111011111101011
00000010000000100000010000000001
00000001111100011110110100000001
11101101111100111111111100000000
00000000111101001111010111111011
11110010111110101110010111111011
00000001111111010000000111101111
00000101000000110000001000000000
11111110000000010000001100000100
00000000000000000000000100000010
00000010111100010000000000000001
00000001111111011111000000000010
00000000000001001111001100000000
00000100000000000000001100000001
11110111000000100000000011110101
11101001000000100000000000000010
00000100000000010000010000000100
00000000111100010000001111110110
00000000000000010000001100000010
11100111000001000000000011110000
00000011000000100000001100000001
11111101111100101110101011110000
11101101000000110000000100000000
11111011000000010000000000000010
11111101111101110000000111111001
11111110111100010000000011111001
00000100000000110000001100000010
00000100000001110000011000000000
00000001000000100000000000000001
11110101111100110000000011111010
00000000111110000000000100000001
11111100000000100000001111111101
00000000111111011111001111110010
11101001111101110000000111111100
00000001111110001111000000000000
00000001111111001111110011111101
11110110111011100000001100000000
00000000111111101111101011100110
11110101111101111110101111111101
00000000111101011111000111111011
00000101000000010000000100000000
00000001111101100000000000000010
11111010000000000000000000000000
00000001000000110000001000000100
00000000111100101111011100000000
00000001000000100000001100000010
00000000111111101111011111111001
00000001111111001111111111110101
00000010111110000000000011111110
00000011000000100000001000000011
00000001000000000000000111110011
00000010111101010000000100000010
00000010000000011111000100000001
11101101000000011111000100000010
00000111000000101111011111111111
00000000111111100000000011101000
00000110111101000000100000000011
11111101000001001111101100000100
11111100000000011111110100000000
00000010000000110000011000000010
00000100000000010000001000000010
11110100000000101111000100000010
11111000000000001111100111110001
00000001111101011111111100000001
11110100000000001110100111110011
00000000111111011110100011111100
00000011111100100000010100000000
11101010000000010000000000000000
11111001000000101111100011110101
11101100000000000000000111110011
00000001000000010000001100000010
11110100000000001111101100000000
00000011000000100000001100000100
11111111000000100000000111111100
11110010111101100000000011111110
00000010000001111111110100000000
00000010000000010000010100000011
00000001111111010000000111110111
00000000111101111111111011111100
11110101111110010000001011111000
00000010000000001111010100000001
00000001000000001110001100000000
00000100000000010000000100000000
11111111111100111111011111100111
00000000111111111111000111110110
00000011111011001110001000000000
11111010111101001111111011111011
11111100000000010000000100000000
11111010000000011111101011110011
11100110111100010000000011110011
11111100111111000000000100000000
00000101000000100000000100000011
00000010111101000000000100000000
11101110000000011110110111111011
00000010000000110000000000000100
11101101000000100000000100000000
11111111111011100000001000000000
00000010111101011110011100000010
11111001111111111110011100000000
00000000111101000000001111111001
00000001111011001111010111110100
11101011000000100000000011110010
00000101000000010000000100000000
11111000000000001110010111110110
00000010000000000000001111110010
00000011000000010000001100000011
00000000000000001110111100000001
00000000000000110000001011111111
00000000000000100000001000000001
00000000111100110000001111100101
11111000000000100000000011110110
00000101000000110000000100000001
00000000000000101110110100000000
11111111111011101111100011111100
00000000111101011111011011111110
00000101000000010000001100000011
11101111000000011111000000000000
00000000111111001111111011100111
11110010111100011110101011110010
00000101111100000000010000000000
11101101000000011111010100000001
11111101000000000000000011111010
11111111111110111111100111111111
00000011000000110000001100000000
11111000111111011111000111111110
11110101000000000000001111110000
00000000000000000000000100000101
00000010000000100000001000000010
11111010000000011111000000000000
00000011000000010000010100000011
00000011000010000000001100000010
00000010111101100000000011100110
00000010000001000000001111110110
00000000111100100000000111100101
00000001111011110000001000000000
11111001111110011111111011111011
00000011111011011110111000000000
00000001111111001111000011111011
00000000111101110000001011110101
00000001111101101111010011111010
11110001000000001111100000000000
00000100000000110000000000000011
00000001111111101111111011110000
11101011000000100000010100000011
00000011000000100000000100000011
11110110000000011111111111111000
11111110000000000000000100000000
00000000111110000000001111100111
11110110111110110000000100000001
00000010000000000000010000000011
00000000111110100000000011110110
00000001111110001110111000000001
11111011111110001111101100000000
00000011111101111110110100000100
00000001111011101111101000000001
11111010111110110000000011111011
11111110000000001111110011111101
00000000111110000000000011111101
00000001111101011111011011110111
00000000000000100000001000000001
00000000000001001111101100000100
00000001000000110000000100000000
11110111111100011111111000000011
00000000111101001110110011110111
11101101000000010000010000000011
11111000000000000000001011110011
00000000111101111111110011110101
00000001111111010000000011110110
00000000111110000000000011111001
00000010111010110000000100000001
11111010000000100000000011110101
00000010000000010000010000000010
11110010000000100000001100000000
00000110000000010000001000000001
11111111111011011110101011111111
00000001000000010000000011111010
11111010111111010000010111111111
00000010000000100000001000000010
00000011000000110000001100000101
00000011000000001111111000000000
11101110111011100000000000000000
00000101000000011111110111110010
11111100000000001111010000000011
11110101111111100000000011111101
11111110000000000000000011111111
11111100000000001111100000000001
00000010000000001111110000000010
00000000000000001110111111110001
00000001000000110000001000000011
00000110000000110000010000000011
00000011000000000000010100000011
00000000111110010000000011111000
00000011000000001111101100000011
11111000111111011111101100000000
11111010111100110000010100000001
11101000000000000000000011100010
00000010111110010000001100000000
00000010000000110000001000000100
00000011111100000000000000000001
00000010000000001111010000000000
00000010000000100000001000000011
00000001000000110000010100000010
00000001000000010000000100000010
11110111111111111111100000000001
00000000000000010000010100000001
11111100000000010000001000000100
11111110000000001110100100000000
00000010000000100000001100000100
11111011000000101111100111111000
00000001111110111111100111101010
11110100111110011110111011111101
11111100000000001110101111110011
11110100000000000000001000000001
00000000111011111111111111111000
11110101111101110000000000000000
00000000111101111111110111111110
11110111000000000000001011111010
00000011111101011111000000000010
11110100111011000000000000000000
00000001111111101110101000000000
00000001111111101110100100000010
00000000111111010000010111111111
00000000111110100000010111100001
00000000111111101110111100000011
00000000111110110000010111110100
00000001000000110000001000000010
00000000000000101111001000000000
00000000111101110000000111111001
00000000000000000000000111111000
00000001000000010000001000000001
00000011111110111111100100000000
11111000111101011111110100000000
11111000000000101111010100000010
00000010000000001111111000000000
11111101000000011111111111111100
00000001000000001111000000000001
11110101111111010000000000000000
00000010000000111111000000000011
00000010111111001110110100000011
11101011111001100000000000000010
00000010111101111110110000000001
00000011000000100000001000000010
00000001111101101111100111111010
11110000000000000000000000000101
00000011000000010000001100000001
11110011111110010000001100000000
11111111111110000000000111111100
00000011111100100000000000000000
00000001000000001111000000000010
11111011000000010000000100000000
00000010111110010000000011110111
11111010000000010000001100000001
11111001000000000000001111111111
00000100000000010000010011111100
00000000000001001111010000000011
11101011111100100000001100000001
00000010000000010000001000000001
11111000000000000000001011111111
00000011000000100000000000000001
11111110111111001110010111111101
00000100000000100000010000000010
11111001000000000000001011110111
00000000000000011111010000000010
11111001000000000000000111101001
11111010000000010000000011110011
11110001111100110000000000000000
00000000111101101110111100000010
00000000000000010000001111111000
00000110000001000000001100000001
00000010000000000000001100000010
00000001111111010000001111111011
00000001000000101111011011111101
11110000000000101111101000000101
11110101000000000000100000000000
11111100111101000000001000000001
00000010000000100000001100000011
00000000000001001110110000000100
00000011111111001111001100000011
11111101111101000000000011101010
11110100000000000000000000000000
00000011000000010000010100000011
11111111111111111111001111110001
00000001000000011111111111111000
11110100000000000000001011101101
11110110111110110000000100000011
00000010111100000000001011111111
11110101000000011111101011110110
00000000111111011111111111101110
00000001000000100000001100000010
00000011000000110000000100000100
11110011111111111110110111111100
00000001111101110000000011111110
11111110000000111111011000000100
00000000000000001110100100000010
00000000000000101110111111110010
00000010000000100000000011111100
00000000000000001111110111111110
11110111000000000000001100000000
00000100000000110000000100000001
00000000000000000000001011110101
11110001000000110000000011110011
00000010111011000000001000000010
00000001111111101110100100000100
00000000111100100000001000000001
11110110111110110000000111111101
11110110000000001111001011111110
00000011000000110000001100000100
11100110111101011111111000000000
11101011111001111110110011111100
11111100000000011111111111110101
00000100000000101111100100000011
00000000111110111111110000000010
00000010000000110000000000000100
00000000111100101111010011110010
00000000111001110000000111101011
11111111111011111111010100000001
00000010000000010000001100000010
00000001000000000000000011111110
11110010111110100000000011111010
00000010111101011111100111111011
11111110111101011111000011111111
00000110000000000000001100000100
00000101000000100000001000000011
11111111000000100000001111110011
11111011000000101110101100000011
00000011000000110000001100000010
11111100000000100000101000000110
11111101000000101110111011111010
00000010111100000000000000000000
00000010000000001111111011111010
11111001000000100000010000000000
11101011111101100000000011111111
00000001111101001111100111111001
00000010000000110000001000000000
11110101111111001111010011111100
11110010111011111111010111111001
11101100000000000000001000000001
11111000000001000000000011111100
00000001000001000000001100000001
11110010000001000000000111111101
00000000111111111111101011101101
11111110111110111111110000000011
00000010000000010000001100000011
00000011000001001111111000000010
00000001000000100000000000000100
00000000111111011111100111111011
11110111000000010000000011111001
00000100000000110000001100000001
00000000111111001110100111110001
00000000000000100000010000000001
11101001000000000000000011111110
00000001000000110000001000000010
11111101000000100000000000000011
00000001000000111111010100000000
11110010000000010000000111110111
00000001111011111111011111110000
00000000111100011111100011101100
11101000111100111110111111101111
00000010000000010000000000000100
00000000111111000000000011110100
00000011000000110000001000000000
00000000111101101111111011101001
00000100000000000000010000000001
11101110000000010000001011111111
11110011111101010000010000000011
00000001000000000000000100000001
11111001000000001111110011110000
00000001000000101111100000000000
11100111000000010000000011110011
11111111000000000000000100000000
11110011111011011110111000000001
11111101000000101111111000000001
00000000000000000000001000000100
11110001000000011110111000000001
11101000111110110000000000000001
11110101000000001111001011101100
00000011000000000000000100000001
00000010000000000000001000000011
00000010111100000000000011101011
00000010000001000000000100000011
00000001111110101111010111110100
00000000000000100000000000000000
00000010000000110000000000000011
00000010000000011111010000000011
11111100000001000000010111111100
11110111000001011111111100000100
00000100000000100000001000000011
00000011111111011111101011111111
11111111111110011111111111101010
11111011000000101111110000000000
00000000000000101111010000000000
00000000000000100000001000000101
11111011000000000000000000000000
00000001111011101111001100000001
00000100111100000000001000000010
00000000000000000000000011110110
11101100111101000000001111110111
11111100111101010000000011111100
00000000111111000000001111111111
00000000000000010000000000000100
00000001000000110000010000000001
11110000000000011111100100000000
00000001111110101111000111110100
11111011111111010000001000000000
11101110000001011111110011111010
11111100000000000000000000000010
11110100000000000000001100000110
11111100000000001111111011110110
00000110000000110000000100000010
00000011000000100000001000000100
11110100111110000000000000000001
00000001000000001111111111111111
11100100111010101111000000000000
00000001111101000000000011100011
11101000111101101110111100000000
11110110000000110000000111101111
00000000111110111110100000000000
00000101000000010000001011101110
11111101000000111111111011101101
11111001111101111111001100000010
00000011000000110000000000000010
11111111111111110000000011110100
00000011000000100000010000000000
00000000111100001110101111110100
00000100000000100000000100000101
00000010000000011111111100000000
00000000111011111111010011111110
00000010000000011111000100000001
00000011111101011111011011111000
00000000111101100000000000000000
00000001111110111111010100000001
00000000111100100000000111100110
11110110000000000000000000000001
00000101000000010000010100000001
00000110000000010000010000000010
00000011111110100000000000000101
00000000111110000000000100000001
11110111111111010000000111111010
00000101000000100000010000000011
00000001111101000000000111111110
11111000111111110000000100000000
00000011000000010000000000000000
11111010000000010000001011101111
00000000111111010000000111111011
00000000111101101111101000000010
00000000000000001111011100000011
11100110000000111111111100000001
00000000000000110000000111110000
11100111000000100000000011111110
00000010000000100000001000000010
00000100000000010000001000000011
00000010111101100000000000000001
00000011000000010000001000000011
11101001111100101110110100000000
00000100111100000000000111110110
11110111000000101111111011110001
11101101000000100000001011110011
00000001000000000000000000000010
11110101111101010000000000000000
11111111000000000000001011101100
00000000000000001111110011101101
00000010000000010000000000000010
11111010000000100000000000000001
11110110111110100000000011111101
11111101111011001111000011110111
11110110000000100000001100000010
11110010000000001111101000000001
00000011000000010000000100000000
00000000000000001111110111111111
11111111111011111110010000000010
11111111000001110000001100001001
00000000111100111110110011111011
11111110111110010000000011111111
00000011000000000000001100000010
11110101000000011110110100000000
00000000111100100000001011100000
00000011111010000000011100000001
00000011000000010000001100000011
00000010000000000000000011101001
00000001111111000000000000000010
11110110111111111111111000000000
00000000111111001111000111111110
00000001000001001111000100000001
11111101000000011111111111110111
00000000111101101111010100000001
11110011111100111111101111111111
11110011000000000000000100000100
00000000111111001111101100000000
00000000111101010000000000000100
00000100000000000000000000000101
00000001111111111111110111111100
00000000111011111111100111111011
00000001111100000000011011111110
00000001111100101110011011110001
00000100000000110000010000000011
00000100000001100000001000000011
00000000000000110000000000000011
00000000111011001111101111111010
00000000111100011111011000000000
00000001000000000000000000000100
11111111111101010000001111110100
11111011111111110000000011110110
00000000111100101110100000000001
00000101000000010000001100000010
00000000111101001111110000000000
11100111111101011111111100000000
00000100000000100000000100000010
11111100111110010000000111101111
00000001000000000000010000000101
00000000000000110000000011111111
11110101000000010000010111111100
00000010000000101111111000000001
00000011000000010000001100000110
11111000000001010000000000000100
00000000000000100000001100000010
11111001000000110000001011111110
00000100000000110000011000000000
00000010111101000000000011100100
00000000111100110000010011111010
00000010111110100000001000000001
00000011000000100000001000000011
00000011111101100000010100000001
00000010111101110000000011111100
00000011000000100000001000000010
00000011000001101111001100000101
11110111111110101111101111111000
11101101111111101111100100000000
00000001111111000000000011110011
00000001111100111111110000000011
00000001111111111111110100000000
00000000000000101110111011110001
11110111000000001111110100000000
00000010111011001111110100000001
11111011111101000000000111110100
11111010000000101111111000000010
00000100000000001110111100000001
00000100000000110000001000000010
00000110000000110000001100000010
00000000000000000000010000000100
00000000000000000000000111111010
00000000000000001110011100000011
00000000000000001110110111111101
00000000000000000000000011100011
00000000000000000000100000000110
00000000000000001111100111101001
00000000000000000000000111101111
00000000000000001111001100000000
00000000000000001111011011111111
00000000000000000000010000000000
00000000000000001111101011111111
00000000000000000000001011111111
00000000000000001111001111100111
00000000000000001111111011111101
00000000000000001111101011110001
00000000000000000000000111101011
00000000000000000000010000000010
00000000000000000000000100000010
00000000000000000000000100000001
00000000000000001110110000000000
00000000000000000000000100000011
00000000000000000000010000000011
00000000000000000000001100000011
00000000000000000000010100000001
00000000000000000000000011110000
00000000000000001110111111111101
00000000000000000000001100000011
00000000000000000000000100000010
00000000000000000000000000000011
00000000000000000000010000000000
00000000000000001110111100000000
00000000000000000000001100000010
00000000000000000000000011101010
00000000000000001110111100000000
00000000000000000000000100000010
00000000000000000000000000000011
00000000000000000000001000000010
00000000000000000000001011111111
00000000000000000000000000000000
00000000000000001111111111101010
00000000000000001111001100000000
00000000000000001111100100000001
00000000000000001111100011111101
00000000000000000000000000000100
00000000000000001110111011111101
00000000000000000000000000000001
00000000000000001111011111110110
00000000000000000000001000000001
00000000000000000000001100000100
00000000000000001111100100000100
00000000000000000000001100000001
00000000000000001110110100000010
00000000000000001111101111110100
00000000000000000000001011100010
00000000000000000000000000000000
00000000000000001111100111111011
00000000000000001111101111101111
00000000000000001111000100000000
00000000000000001111111111111011
00000000000000000000000100000011
00000000000000001111010100000000
00000000000000001111011011111001
00000000000000000000000000000100
00000000000000001111000100000011
00000000000000000000001111111110
00000000000000000000000011111110
00000000000000000000001100000100
00000000000000000000001011101110
00000000000000001111111111110111
00000000000000001110111000000001
00000000000000000000000011110010
00000000000000000000001111110010
00000000000000000000001100000010
00000000000000001110111111100101
00000000000000000000000000000000
00000000000000001111110011101101
00000000000000000000000100000010
00000000000000001110100011111101
00000000000000000000000100000000
00000000000000001111001011101011
00000000000000000000000011111101
00000000000000000000000011110011
00000000000000000000010011111000
00000000000000001111110000000010
00000000000000001111101100000001
00000000000000000000000011111010
00000000000000000000000100000000
00000000000000000000000100000000
00000000000000001111101100000000
00000000000000000000010000000001
00000000000000000000001100000011
00000000000000001111011011110101
00000000000000000000000100000010
00000000000000000000001000000001
00000000000000000000000111110110
00000000000000001110101100000000
00000000000000000000001011110010
00000000000000000000000000000001
00000000000000001110111100000000
00000000000000001111111011110101
00000000000000000000001000000000
00000000000000001111101000000110
00000000000000000000001000000000
00000000000000000000001011110100
00000000000000001111110100000000
00000000000000000000001100000001
00000000000000000000000011111000
00000000000000000000000100000000
00000000000000000000010000000011
00000000000000000000000011111101
00000000000000001111100000000001
00000000000000000000001000000001
00000000000000001111111111101001
00000000000000000000001000000000
00000000000000001111111111110101
00000000000000000000000011110111
00000000000000000000010000000101
00000000000000001110111000000001
00000000000000001110010011111001
00000000000000000000001100000101
00000000000000001110011011111011
00000000000000000000001100000010
00000000000000000000001000000100
00000000000000001111001111101001
00000000000000001111011100000011
00000000000000000000001000000011
00000000000000001111100011101011
00000000000000000000000100000011
00000000000000000000001011111011
00000000000000001110110111110000
00000000000000000000010111111011
00000000000000000000001000000101
00000000000000000000001000000010
00000000000000001111111111110010
00000000000000000000100100000010
00000000000000001111110000000010
00000000000000000000000000000000
00000000000000001111110100000001
00000000000000000000001011110111
00000000000000001111111111101110
00000000000000001111111011110010
00000000000000000000010100000011
00000000000000001111110111110110
00000000000000000000000100000010
00000000000000001110011011111111
00000000000000000000000111110101
00000000000000001111011100000001
00000000000000000000001000000110
00000000000000000000001100000000
00000000000000000000010100001000
00000000000000000000000000000100
00000000000000000000000000000010
00000000000000000000000000000000
00000000000000000000000100000001
00000000000000001110001011111101
00000000000000000000010000000010
00000000000000001111111000000000
00000000000000000000000011100111
00000000000000000000000111101010
00000000000000000000000111110001
00000000000000000000000011110100
00000000000000000000000011110111
00000000000000000000001000000011
00000000000000000000000000000001
00000000000000000000010000000010
00000000000000001110011011110110
00000000000000001111111111110010
00000000000000001111111011110110
00000000000000000000000000000010
00000000000000001110110011111100
00000000000000000000000000000100
00000000000000000000000011110010
00000000000000001111110111110100
00000000000000001110010100000000
00000000000000000000001000000011
00000000000000000000000100000111
00000000000000000000000011101011
00000000000000001110110000000001
00000000000000000000000100000001
00000000000000001111101100000000
00000000000000000000000011101111
00000000000000000000000100000100
00000000000000000000001111101100
00000000000000000000001000000010
00000000000000000000001111111000
00000000000000000000000000000000
00000000000000001111110000000011
00000000000000001111001000000010
00000000000000000000001011111011
00000000000000000000000111110100
00000000000000000000001100000011
00000000000000000000000111110010
00000000000000001111100111110111
00000000000000001111111011110010
00000000000000001111101011110000
00000000000000001111001011111000
00000000000000000000000100000001
00000000000000001111101111101100
00000000000000000000001111111110
00000000000000000000000011101011
00000000000000001110000000000000
00000000000000000000000011101101
00000000000000001110111100000011
00000000000000001111111111110001
00000000000000000000001100000010
00000000000000001111111100000000
00000000000000000000001100000011
00000000000000001110110100000010
00000000000000001110010100000000
00000000000000000000001011101111
00000000000000001110101100000001
00000000000000000000010100000100
00000000000000001111100000000001
00000000000000000000000011101010
00000000000000000000010000000010
00000000000000000000010000000010
00000000000000000000000000000010
00000000000000001110001011111011
00000000000000001111110111101111
00000000000000000000001000000000
00000000000000000000010100000011
00000000000000000000001100000000
00000000000000001111111111101000
00000000000000000000000000000100
00000000000000000000000000000101
00000000000000001110001011111001
00000000000000000000000100000010
00000000000000000000001000000010
00000000000000000000010000000000
00000000000000001111100100000001
00000000000000000000001000000100
00000000000000000000000111101101
00000000000000000000001000000000
00000000000000000000010000000000
00000000000000001111101011110111
00000000000000001111010100000010
00000000000000000000000100000000
00000000000000000000000000000010
00000000000000000000001100000100
00000000000000000000000100000001
00000000000000001111100000000010
00000000000000001110101111101100
00000000000000001110111011111111
00000000000000001111000000000011
00000000000000001111111111101011
00000000000000000000001000000110
00000000000000001111000000000000
00000000000000000000001000000001
00000000000000000000010100000101
00000000000000000000000011101100
00000000000000000000001100000000
00000000000000001111100000000010
00000000000000000000001100000000
00000000000000000000000100000010
00000000000000001111111011111101
00000000000000000000000000000100
00000000000000001111101111111100
00000000000000001111111011111001
00000000000000000000000011110110
00000000000000000000000100000000
00000000000000000000000011101011
00000000000000000000010100000111
00000000000000001111110011110000
00000000000000001110111000000010
00000000000000001111110011111110
00000000000000001110101011111100
00000000000000001110101000000001
00000000000000001111111111101100
00000000000000000000000100000010
00000000000000001111010111111011
00000000000000001111111111111011
00000000000000001111011100000010
00000000000000000000000011101110
00000000000000001111111011110111
00000000000000000000000000000100
00000000000000001110000011110110
00000000000000000000001100000000
00000000000000000000000000000011
00000000000000001111111100000000
00000000000000001111110100000000
00000000000000000000001100000110
00000000000000001111110100000100
00000000000000001111111011111110
00000000000000001111001100000001
00000000000000001110110100000001
00000000000000000000000011110011
00000000000000000000000100000001
00000000000000000000001100000001
00000000000000001111100011100111
00000000000000000000000111111100
00000000000000001111111011101010
00000000000000000000000100000000
00000000000000001111101011100101
00000000000000000000000111110010
00000000000000000000001100000010
00000000000000001111111011110101
00000000000000001111000000000001
00000000000000001111101111101111
00000000000000000000000100000100
00000000000000001111111011111000
00000000000000001110111100000011
00000000000000001111010100000011
00000000000000001111001011110100
00000000000000000000001000000010
00000000000000000000010100000111
00000000000000000000001100000011
00000000000000000000001000000101
00000000000000000000001000000000
00000000000000000000010000000000
00000000000000001111010000000001
00000000000000001111100011111111
00000000000000001111100011101111
00000000000000000000001100000010
00000000000000000000001100000010
00000000000000000000010000000010
00000000000000001111010100000001
00000000000000000000000100000001
00000000000000000000001100000010
00000000000000001111101011110000
00000000000000001110100111110111
00000000000000000000001000000010
00000000000000000000001011101011
00000000000000001111100111111101
00000000000000000000001000000001
00000000000000001110100000000001
00000000000000000000000100000011
00000000000000000000000011111010
00000000000000000000001100000001
00000000000000000000001100000010
00000000000000001101101011110111
00000000000000000000000000000010
00000000000000000000001100000001
00000000000000001110011111110111
00000000000000000000010000000010
00000000000000001111011000000010
00000000000000000000010000000111
00000000000000001111111011101000
00000000000000001111000000000000
00000000000000000000000011110111
00000000000000000000001100000010
00000000000000001111101100000000
00000000000000000000010100000100
00000000000000000000001000000101
00000000000000001111011000000010
00000000000000000000001000000001
00000000000000000000010011111110
00000000000000000000001111110100
00000000000000000000001011110111
00000000000000001111011100000011
00000000000000001110111011111111
00000000000000001111111111111111
00000000000000000000000011110011
00000000000000001110011011111101
00000000000000001111001100000100
00000000000000000000001111100011
00000000000000000000000000000011
00000000000000000000001000000011
00000000000000001111000100000011
00000000000000001111011011111100
00000000000000000000000100000100
00000000000000001111101011101100
00000000000000000000010000000011
00000000000000000000000100000010
00000000000000001111100011101110
00000000000000000000000011110100
00000000000000001111000100000010
00000000000000000000000000000101
00000000000000000000010000000001
00000000000000001111101000000001
00000000000000000000000111111000
00000000000000001111111011110000
00000000000000001111001000000010
00000000000000001110001100000000
00000000000000000000000011110100
00000000000000001111110111111111
00000000000000000000010100000011
00000000000000000000000011111100
00000000000000001111111100000011
00000000000000000000000100000010
00000000000000000000001100000010
00000000000000000000000100000010
00000000000000000000001111101001
00000000000000001111100100000111
00000000000000000000000011110011
00000000000000000000001000000011
00000000000000000000000000000100
00000000000000000000000000000001
00000000000000001111111100000010
00000000000000000000001111110110
00000000000000000000000111111111
00000000000000000000100000000100
00000000000000001111010000000100
00000000000000001111001000000000
00000000000000001111110011110111
00000000000000000000010000000000
00000000000000000000001111111101
00000000000000001110011000000000
00000000000000000000001000000011
00000000000000001111010100000010
00000000000000001111111011110010
00000000000000000000001000000100
00000000000000000000001100000010
00000000000000001110111000000010
00000000000000001111011000000001
00000000000000001111110011100110
00000000000000001110111000000011
00000000000000001110110111110000
00000000000000001111111000000110
00000000000000000000001100000000
00000000000000000000000000000011
00000000000000000000001011110010
00000000000000000000001100000001
00000000000000000000010100000011
00000000000000001110011111110110
00000000000000001111100000000011
00000000000000000000000111110110
00000000000000000000010000000000
00000000000000001110111011110000
00000000000000000000001000000001
00000000000000000000000000000000
00000000000000000000001100000100
00000000000000001111000000000000
00000000000000001110111111110100
00000000000000000000000000000010
00000000000000000000010000000001
00000000000000000000001000000011
00000000000000000000001000000001
00000000000000000000000111101110
00000000000000000000000100000001
00000000000000000000001100000000
00000000000000001111111111110110
00000000000000000000001100000010
00000000000000000000010000000011
00000000000000000000000111111111
00000000000000001111110111110011
00000000000000000000001000000010
00000000000000000000000000000000
00000000000000001110111011101100
00000000000000001111001011110010
00000000000000000000000111111000
00000000000000000000000100000010
00000000000000000000000011111001
00000000000000000000000111110111
00000000000000001110100111110111
00000000000000000000001111110101
00000000000000001111111111101110
00000000000000001110111111101111
00000000000000001111111000000001
00000000000000000000000100000011
00000000000000000000010000000011
00000000000000001111101011110001
00000000000000001111110111101011
00000000000000001111110000000001
00000000000000001111000111101111
00000000000000000000000100000010
00000000000000000000000011101110
00000000000000000000001000000001
00000000000000000000101000000011
00000000000000001110111111110111
00000000000000000000010000000010
00000000000000001110001011110001
00000000000000000000000100000000
00000000000000001111111000000001
00000000000000001111010011110011
00000000000000000000000011110110
00000000000000001111000111111011
00000000000000000000010011111011
00000000000000000000001011111000
00000000000000001110100011111010
00000000000000001110111100000000
00000000000000001111111111111011
00000000000000001111101011101100
00000000000000000000000100000000
00000000000000001111110111111111
00000000000000000000000000000101
00000000000000001111110011110010
00000000000000000000001000000011
00000000000000000000000000000001
00000000000000001111010011110011
00000000000000000000000100000000
00000000000000000000000100000011
00000000000000000000000011111100
00000000000000000000000011110101
00000000000000000000000100000001
00000000000000001111110011101110
00000000000000000000000011110100
00000000000000000000010000000011
00000000000000000000000000000001
00000000000000000000000100000010
00000000000000001111010100000001
00000000000000001111000011101111
00000000000000000000001000000011
00000000000000000000010000000001
00000000000000000000000011110101
00000000000000000000000111110010
00000000000000000000001000000000
00000000000000000000000111110111
00000000000000000000001011101010
00000000000000000000010000000011
00000000000000001111001011111111
00000000000000000000001000000010
00000000000000000000001000000001
00000000000000001110101011111101
00000000000000000000001011111011
00000000000000000000001000000001
00000000000000000000010000000010
00000000000000000000001000000000
00000000000000000000001011111111
00000000000000001111101111110101
00000000000000000000001011110101
00000000000000001111000011100111
00000000000000000000001000000000
00000000000000001111100000000100
00000000000000000000001000000101
00000000000000001111000111101111
00000000000000000000000000000000
00000000000000000000000111110110
00000000000000000000000000000101
00000000000000000000000100000011
00000000000000001111111111101011
00000000000000000000000100000101
00000000000000000000001000000000
00000000000000000000000111110001
00000000000000001111100011111000
00000000000000001110110111101000
00000000000000000000000111111101
00000000000000000000011000000001
00000000000000000000001000000100
00000000000000000000001100000001
00000000000000001110111111111110
00000000000000000000001000000011
00000000000000001110011111110001
00000000000000000000000000000100
00000000000000000000001011101011
00000000000000000000010000000001
00000000000000000000000000000101
00000000000000000000001000000000
00000000000000000000001100000001
00000000000000001111111000000000
00000000000000001110110011111100
00000000000000000000000111101111
00000000000000000000000011111011
00000000000000000000000100000001
00000000000000000000000111110110
00000000000000000000001000000010
00000000000000000000000100000011
00000000000000001110111100000001
00000000000000001111111011110100
00000000000000000000011000000000
00000000000000001111011111101111
00000000000000001110111111110011
00000000000000000000001011110101
00000000000000000000001000000010
00000000000000001111001100000001
00000000000000001111011011101110
00000000000000000000001100000011
00000000000000001110000111111001
00000000000000000000010000000000
00000000000000001111100111111000
00000000000000000000010000000010
00000000000000000000001000000001
00000000000000000000001100000010
00000000000000001110110111110101
00000000000000000000000011110100
00000000000000001111110100000010
00000000000000000000000011110100
00000000000000001111111111101101
00000000000000001111111011111010
00000000000000000000000000000010
00000000000000000000000000000011
00000000000000000000000100000000
00000000000000001111111011101001
00000000000000000000010000000010
00000000000000001111111111111000
00000000000000000000000000000010
00000000000000000000000111101001
00000000000000000000010000000110
00000000000000000000001000000010
00000000000000001111111011101110
00000000000000000000001000000011
00000000000000000000001100000011
00000000000000000000000100000010
00000000000000000000000000000001
00000000000000001111101011101101
00000000000000001111001100000000
00000000000000001111010111110000
00000000000000000000001000000001
00000000000000000000010100000011
00000000000000001111111011101110
00000000000000001110100111111001
00000000000000000000000100000001
00000000000000000000010011111000
00000000000000000000000000001010
00000000000000000000001100000011
00000000000000000000000100000001
00000000000000001111011100000000
00000000000000000000001100000010
00000000000000000000000011110010
00000000000000001110110011111011
00000000000000001111000011110110
00000000000000000000001100000001
00000000000000000000010000000010
00000000000000001111111111110110
00000000000000001111111100000000
00000000000000000000000100000001
00000000000000000000000111101101
00000000000000001111100011100110
00000000000000001111101100000101
00000000000000000000001100000011
00000000000000001111100011110011
00000000000000001111110100000000
00000000000000001111001011110000
00000000000000000000000000000100
00000000000000001111001100000000
00000000000000000000001000000101
00000000000000000000010100000001
00000000000000000000000011111101
00000000000000001111001000000011
00000000000000000000001000000000
00000000000000000000001000000000
00000000000000001111000111101001
00000000000000000000000000000010
00000000000000001111000111111000
00000000000000001111000011110011
00000000000000001111001100000000
00000000000000000000000111110101
00000000000000000000000100000010
00000000000000000000000100000011
00000000000000000000000100000000
00000000000000000000001100000001
00000000000000001111111111110100
00000000000000001110011011110011
00000000000000000000000100000010
00000000000000000000000100000000
00000000000000000000010000000000
00000000000000000000001000000011
00000000000000000000001000000001
00000000000000000000001011111001
00000000000000000000010000000011
00000000000000000000000111110001
00000000000000001111001111110100
00000000000000001111101111110010
00000000000000001111100011110101
00000000000000001111010011110101
00000000000000001110110100000110
00000000000000000000001100000101
00000000000000000000011111111001
00000000000000000000000111110110
00000000000000001110110111101111
00000000000000000000001100000001
00000000000000001111100111111010
00000000000000001111010011110010
00000000000000001110110011111100
00000000000000000000000011111011
00000000000000000000001011101110
00000000000000001111001000000100
00000000000000000000001000000001
00000000000000001110101100000011
00000000000000000000001000000001
00000000000000001111001011110100
00000000000000001110111000000010
00000000000000001110101011111111
00000000000000000000000100000010
00000000000000000000000100000000
00000000000000001111010011111010
00000000000000001110100000000100
00000000000000000000000000000001
00000000000000000000001000000001
00000000000000001111110011111101
00000000000000001111111000000000
00000000000000001110010011111010
00000000000000001111000100000001
00000000000000001111100111110100
00000000000000000000010000000011
00000000000000000000000000000010
00000000000000000000001100000100
00000000000000001111011111101111
00000000000000000000000011111011
00000000000000000000000011110011
00000000000000000000001111111011
00000000000000000000000100000000
00000000000000000000001100000101
00000000000000000000001000000010
00000000000000000000000000000011
00000000000000001111100011110111
00000000000000000000001111110000
00000000000000000000001000000000
00000000000000000000001000000000
00000000000000001111000000000101
00000000000000001111000000000110
00000000000000000000001100000111
00000000000000000000000011110010
00000000000000000000001100000010
00000000000000001110110000000001
00000000000000000000000000000010
00000000000000000000000100000110
00000000000000001110111111111111
00000000000000001111000000000011
00000000000000001110111111110011
00000000000000000000000011101110
00000000000000001111010011111011
00000000000000001110111011111110
00000000000000000000000000000000
00000000000000000000000111110101
00000000000000001111001111110001
00000000000000000000000011110000
00000000000000001111001111111111
00000000000000000000000000000011
00000000000000000000000011110111
00000000000000001110001011101000
00000000000000000000000100000001
00000000000000000000000111101100
00000000000000000000000100000001
00000000000000001111100111101001
00000000000000001111000111111111
00000000000000000000000111110101
00000000000000001111010111111110
00000000000000001111100100000010
00000000000000001111011011111110
00000000000000000000000000000000
00000000000000000000000011101110
00000000000000001111111011110100
00000000000000001111110000000010
00000000000000000000000011101111
00000000000000000000000000000000
00000000000000000000000000000010
00000000000000000000010000000001
00000000000000001111100011110001
00000000000000000000000000000001
00000000000000000000000000000100
00000000000000000000000011101110
00000000000000001111111011101111
00000000000000000000000011110110
00000000000000001111000100000001
00000000000000001111011000000001
00000000000000000000011000000001
00000000000000001110001100000000
00000000000000001110011111111010
00000000000000000000001011111010
00000000000000000000001000000100
00000000000000000000000000000010
00000000000000000000001000000100
00000000000000000000000011111000
00000000000000000000001100001000
00000000000000001111011111110101
00000000000000000000001100000001
00000000000000000000000011111001
00000000000000000000000000000001
00000000000000001110110000000001
00000000000000001111011000000000
00000000000000000000000111100101
00000000000000000000000011110110
00000000000000001111000011111110
00000000000000000000000100000100
00000000000000000000001100000011
00000000000000000000010000000100
00000000000000000000001100000001
00000000000000001111110011111101
00000000000000001110110000000000
00000000000000000000010000000000
00000000000000000000001000000011
00000000000000000000000000000101
00000000000000000000000000000010
00000000000000000000000011110001
00000000000000000000000011110000
00000000000000000000000000000000
00000000000000000000000011111001
00000000000000000000000111110111
00000000000000001111101100000010
00000000000000000000001011110111
00000000000000000000001011111000
00000000000000001111111011110101
00000000000000001111111111101111
00000000000000000000001100000010
00000000000000000000000100000100
00000000000000001111100100000000
00000000000000001111110111101000
00000000000000000000010100000000
00000000000000000000000011110000
00000000000000001110100100000000
00000000000000000000000011111101
00000000000000001110101111111100
00000000000000001110101000000101
00000000000000000000000100000010
00000000000000000000000000000001
00000000000000001111111111110100
00000000000000000000000000000001
00000000000000000000001000000000
00000000000000000000000100000001
00000000000000001111110111101111
00000000000000000000000011101011
00000000000000000000001100000011
00000000000000000000000011101111
00000000000000001111101100000001
00000000000000001111010111100101
00000000000000000000000011111101
00000000000000001111011111110110
00000000000000000000011000000001
00000000000000000000000011111001
00000000000000000000000100000000
00000000000000000000000000000010
00000000000000000000001000000010
00000000000000001111100011101111
00000000000000001111100011101110
00000000000000001111010011110100
00000000000000000000001000000001
00000000000000000000010011111111
00000000000000001111101100000110
00000000000000001111110100000000
00000000000000000000001000000010
00000000000000000000001100000011
00000000000000001111101000000011
00000000000000001111000000000000
00000000000000000000000000000001
00000000000000000000000011110010
00000000000000000000001100000001
00000000000000001111111100000000
00000000000000001111000011110111
00000000000000000000001100000010
00000000000000001111110111110100
00000000000000000000100100000000
00000000000000000000000000000000
00000000000000000000001000000011
00000000000000000000000100000001
00000000000000001111111011110110
00000000000000000000001011110010
00000000000000000000000100000000
00000000000000000000010000000000
00000000000000001111101111110001
00000000000000000000001100000010
00000000000000001110100000000000
00000000000000001111001000000000
00000000000000000000000100000011
00000000000000000000000011101101
00000000000000000000000100000100
00000000000000001111110011101100
00000000000000000000001000000010
00000000000000001111110011101100
00000000000000001111110100000000
00000000000000001111011100000011
00000000000000001110010100000000
00000000000000000000001000000001
00000000000000001111111000000000
00000000000000000000001100000100
00000000000000001111001000000010
00000000000000000000001100000100
00000000000000001111111111111111
00000000000000000000010000000100
00000000000000000000000100000000
00000000000000001111110111111011
00000000000000000000010100000001
00000000000000001111111111110011
00000000000000000000000011110000
00000000000000001110111100000000
00000000000000001110101111110000
00000000000000000000000011111110
00000000000000000000000100000000
00000000000000000000001100000001
00000000000000001111100100000000
00000000000000000000001000000000
00000000000000001111110111110010
00000000000000000000010000000001
00000000000000000000001100000101
00000000000000000000000100000011
00000000000000000000010000000011
00000000000000000000000011111101
00000000000000001111001111101011
00000000000000000000000100000010
00000000000000000000001000000010
00000000000000001111111100000000
00000000000000000000001000000001
00000000000000000000000100000100
00000000000000001111111011110101
00000000000000000000000011111010
00000000000000001111011111111011
00000000000000001111000100000010
00000000000000000000001100000001
00000000000000001111011111101101
00000000000000000000000000000000
00000000000000000000001000000100
00000000000000000000000011111101
00000000000000001111011100000010
00000000000000001111001111110100
00000000000000000000000011110010
00000000000000000000011100000100
00000000000000000000000100000011
00000000000000001110011011110011
00000000000000000000000100000010
00000000000000000000010000000011
00000000000000000000000000000001
00000000000000000000001100000001
00000000000000000000010000000101
00000000000000001111011111110110
00000000000000000000001000000011
00000000000000000000010000000010
00000000000000000000000000000000
00000000000000000000000000000110
00000000000000000000000000000011
00000000000000000000001000000000
00000000000000000000000011100110
00000000000000001111001100000100
00000000000000001111010011110010
00000000000000001111110000000000
00000000000000001111111100000000
00000000000000001111110011111111
00000000000000000000001100000000
00000000000000001110101100000001
00000000000000000000001100000010
00000000000000001110011011101110
00000000000000000000000100000000
00000000000000000000001111111001
00000000000000001111010111110110
00000000000000000000000100000011
00000000000000001110111011110110
00000000000000001111000111111110
00000000000000000000010000000001
00000000000000000000000000000001
00000000000000001111010100000100
00000000000000000000000100000100
00000000000000000000001000000101
00000000000000000000010100000010
00000000000000000000001011101000
00000000000000001111111000000000
00000000000000000000010000000101
00000000000000001111101100000011
00000000000000001110110111111011
00000000000000000000001011110000
00000000000000000000001100000100
00000000000000001111100011110101
00000000000000000000001100000010
00000000000000000000000100000001
00000000000000000000001100000010
00000000000000001110110000000000
00000000000000000000000011110001
00000000000000000000010000000010
00000000000000000000000000000100
00000000000000000000001011101110
00000000000000000000001000000011
00000000000000000000000011101011
00000000000000001111111000000000
00000000000000001110100100000001
00000000000000001111001000000000
00000000000000000000000111101100
00000000000000000000001000000000
00000000000000001111000000000010
00000000000000001111001000000000
00000000000000000000000111101010
00000000000000001110111000000010
00000000000000001111011111101100
00000000000000001111000111111010
00000000000000001110011011111110
00000000000000001110001111111100
00000000000000000000010011111110
00000000000000001111011000000000
00000000000000000000000000000000
00000000000000000000010000000100
00000000000000001110110011101000
00000000000000001111100111101111
00000000000000000000001000000010
00000000000000001110101011111110
00000000000000000000000100000010
00000000000000000000001000000101
00000000000000000000001100000000
00000000000000001111001111100111
00000000000000000000010011111010
00000000000000001111011011111010
00000000000000001111100111110100
00000000000000000000001000000000
00000000000000000000010100000001
00000000000000000000000011110001
00000000000000001111111011110000
00000000000000000000001000000010
00000000000000001111010011110111
00000000000000000000001011110000
00000000000000001111100100000001
00000000000000001111011011111101
00000000000000001110110111101111
00000000000000000000000011110010
00000000000000001110111100000000
00000000000000000000001111111110
00000000000000000000010000000010
